<unk> 0
ng 1
▁t 2
▁c 3
▁đ 4
nh 5
▁. 6
▁l 7
▁th 8
▁m 9
▁v 10
▁ch 11
▁h 12
▁b 13
▁k 14
▁n 15
▁, 16
▁nh 17
▁s 18
▁tr 19
▁kh 20
▁ng 21
▁g 22
▁là 23
ông 24
▁p 25
▁ph 26
▁r 27
▁d 28
▁gi 29
ời 30
ên 31
▁cá 32
▁và 33
qu 34
▁qu 35
▁có 36
iệ 37
ột 38
▁không 39
ôi 40
iế 41
▁một 42
ới 43
ủa 44
▁của 45
▁T 46
▁x 47
ười 48
ượ 49
ình 50
ất 51
ại 52
▁C 53
▁N 54
uy 55
ày 56
ai 57
▁người 58
ong 59
anh 60
ược 61
ch 62
iề 63
▁được 64
▁nó 65
ững 66
ân 67
▁cho 68
ay 69
ấy 70
▁như 71
▁ngh 72
▁mà 73
▁tôi 74
ươ 75
ải 76
▁những 77
▁thì 78
ây 79
ao 80
▁đã 81
ần 82
▁cái 83
▁đó 84
▁đi 85
an 86
on 87
▁với 88
ướ 89
▁trong 90
▁các 91
iều 92
▁này 93
ũng 94
em 95
úng 96
ăm 97
ồi 98
ạn 99
▁anh 100
uố 101
iên 102
▁? 103
ác 104
▁V 105
▁ra 106
▁cũng 107
▁mình 108
▁để 109
▁ta 110
ến 111
▁con 112
ành 113
ước 114
ết 115
▁sẽ 116
ang 117
▁ở 118
▁làm 119
ương 120
▁lại 121
▁cả 122
inh 123
▁phải 124
ầu 125
▁thể 126
▁M 127
▁Đ 128
ườ 129
âu 130
iết 131
ường 132
▁em 133
▁họ 134
ận 135
▁về 136
ào 137
ức 138
▁H 139
ực 140
▁hai 141
▁đến 142
iện 143
au 144
▁ho 145
ằng 146
àn 147
▁nói 148
▁độ 149
ơn 150
àng 151
▁rồi 152
ài 153
ính 154
ật 155
▁gì 156
▁khi 157
▁Ch 158
iể 159
▁B 160
▁Nh 161
▁công 162
òn 163
▁bạn 164
▁từ 165
ưa 166
ăn 167
▁chúng 168
ống 169
ung 170
▁vào 171
ản 172
▁sự 173
ậy 174
ối 175
▁Th 176
ùng 177
iệc 178
iến 179
in 180
ữa 181
▁thế 182
ái 183
át 184
▁nhà 185
▁việc 186
▁nhiều 187
▁nào 188
▁ông 189
úc 190
▁biết 191
▁đầu 192
▁chỉ 193
ơi 194
▁K 195
▁Ng 196
▁thấy 197
ôn 198
▁năm 199
áng 200
▁L 201
▁còn 202
▁giờ 203
▁rất 204
ội 205
ăng 206
▁thành 207
êu 208
▁chuy 209
ồng 210
án 211
▁vậy 212
▁đây 213
▁Tr 214
ộc 215
ắc 216
eo 217
ục 218
▁bị 219
▁đị 220
am 221
ọi 222
iệt 223
ẫn 224
▁ba 225
ắt 226
ập 227
▁hơn 228
ươi 229
ện 230
▁lu 231
òng 232
ổi 233
ếu 234
▁tiế 235
▁trên 236
▁đề 237
▁đang 238
áo 239
uộc 240
ích 241
ánh 242
▁mươi 243
▁y 244
▁quan 245
ặt 246
▁nghĩ 247
▁ngày 248
▁sao 249
iền 250
ách 251
▁nhưng 252
▁S 253
âm 254
▁quy 255
▁chính 256
▁lên 257
▁mới 258
ìn 259
ưng 260
ấn 261
▁nên 262
▁Kh 263
▁nước 264
uốn 265
▁số 266
ỏi 267
▁điều 268
▁nhất 269
▁A 270
▁vì 271
▁chị 272
▁tư 273
▁cô 274
▁Tôi 275
▁nữa 276
▁rằng 277
▁học 278
ặc 279
▁bả 280
▁sau 281
▁nhân 282
▁khác 283
ạo 284
▁tại 285
▁hay 286
▁động 287
ám 288
ền 289
iểu 290
ốc 291
▁cách 292
▁hiện 293
▁theo 294
ởng 295
ứng 296
iệu 297
▁ấy 298
▁thời 299
▁muốn 300
▁định 301
▁qua 302
▁to 303
▁do 304
▁trước 305
▁tới 306
áp 307
▁đâu 308
▁trăm 309
▁thu 310
ốt 311
ượng 312
ạnh 313
êm 314
ấu 315
▁cùng 316
ấp 317
ọng 318
ốn 319
ạt 320
ừng 321
▁nay 322
▁gia 323
▁Nhưng 324
▁chuyện 325
▁tự 326
▁lo 327
▁hàng 328
▁thực 329
▁P 330
▁đồng 331
▁chí 332
▁Và 333
ỗi 334
▁cơ 335
▁nhận 336
▁lý 337
▁vẫn 338
▁kho 339
▁ý 340
▁ăn 341
ắn 342
▁mười 343
áu 344
▁cứ 345
▁cuộc 346
▁tin 347
ừa 348
▁lớ 349
ắng 350
▁quá 351
uống 352
▁thứ 353
▁Anh 354
▁bộ 355
▁hội 356
▁vị 357
▁cảm 358
ậu 359
▁thôi 360
▁mẹ 361
ia 362
▁mọi 363
ịch 364
▁cần 365
▁sống 366
▁chưa 367
▁hết 368
▁ngo 369
ắm 370
▁trường 371
iêu 372
▁D 373
▁dụ 374
▁bà 375
▁nghiệ 376
▁chú 377
ảng 378
▁tâm 379
▁mặt 380
▁tình 381
▁lúc 382
▁tiếp 383
ua 384
▁đối 385
▁luôn 386
▁tiền 387
ẳng 388
▁Ph 389
▁ai 390
ồn 391
▁nhau 392
uyên 393
ễn 394
en 395
▁Q 396
▁phát 397
ửa 398
▁bằng 399
▁quân 400
▁hình 401
▁hành 402
▁lớn 403
▁phần 404
ôm 405
▁dân 406
▁thường 407
ợp 408
ệnh 409
▁hỏi 410
▁sinh 411
óng 412
▁! 413
▁tu 414
▁điể 415
▁thông 416
▁nhiên 417
▁viên 418
ầm 419
▁chủ 420
ọn 421
▁hợp 422
ìm 423
▁bên 424
▁nếu 425
▁trở 426
▁Có 427
▁đường 428
▁bắt 429
▁bao 430
ướng 431
▁nhìn 432
ởi 433
▁cao 434
▁năng 435
▁lần 436
▁dự 437
▁bảo 438
▁điểm 439
▁đo 440
iển 441
▁câu 442
▁bản 443
▁xu 444
▁gian 445
▁đại 446
▁đều 447
ưởng 448
▁trình 449
▁kinh 450
▁nghe 451
▁tay 452
▁tổ 453
▁khó 454
▁quốc 455
▁đúng 456
ãy 457
▁tốt 458
ợi 459
▁dụng 460
ạng 461
▁lời 462
▁toàn 463
▁tìm 464
ển 465
▁thức 466
ạc 467
▁G 468
▁giá 469
▁trọng 470
▁thân 471
▁giới 472
▁thật 473
▁lực 474
ặp 475
▁giải 476
▁tế 477
▁trung 478
▁bây 479
▁vừa 480
▁chiến 481
▁chứ 482
▁Một 483
▁đội 484
▁đánh 485
▁cầu 486
▁Việt 487
▁kết 488
▁yêu 489
▁tuy 490
▁thủ 491
▁Không 492
▁tháng 493
ầy 494
▁Nam 495
▁phòng 496
▁bốn 497
▁hiểu 498
▁tính 499
▁tiếng 500
▁đấy 501
▁chín 502
▁nghìn 503
▁xin 504
▁quyết 505
▁má 506
▁E 507
▁vụ 508
▁vô 509
▁tất 510
▁sản 511
▁nghiệp 512
▁hôm 513
ảnh 514
▁thương 515
úp 516
▁đưa 517
ọc 518
▁phí 519
uốc 520
út 521
im 522
ạy 523
▁bệnh 524
▁ngoài 525
▁bất 526
▁giả 527
▁quả 528
ét 529
▁tập 530
▁gọi 531
▁thị 532
ít 533
▁lấy 534
ẩn 535
▁đất 536
▁tạo 537
▁trị 538
▁sáu 539
▁xem 540
▁bỏ 541
▁bu 542
▁di 543
▁tiên 544
iệm 545
▁gặp 546
▁phương 547
▁thích 548
ộng 549
▁sử 550
▁á 551
uyền 552
▁vấn 553
▁xuất 554
▁lượng 555
ép 556
▁Trong 557
iếu 558
▁sĩ 559
▁lắm 560
▁mấy 561
ạm 562
▁bình 563
▁liên 564
▁xuống 565
ạch 566
▁tác 567
▁sáng 568
▁nghĩa 569
▁tài 570
ảy 571
▁giúp 572
▁Em 573
ẩm 574
ảo 575
▁Nếu 576
ỉnh 577
ứa 578
▁kỳ 579
▁xe 580
▁tưởng 581
▁đời 582
▁khu 583
óc 584
▁cậu 585
uối 586
▁đổi 587
uyện 588
▁dư 589
▁đấu 590
iểm 591
▁nhỏ 592
▁hoặc 593
▁nơi 594
▁báo 595
▁cấp 596
▁mạnh 597
▁R 598
▁Chúng 599
▁hoàn 600
▁trả 601
▁biệt 602
▁tho 603
▁hệ 604
▁tiêu 605
▁chức 606
▁pháp 607
▁lòng 608
▁triển 609
▁tám 610
▁Nó 611
▁bảy 612
▁tử 613
▁Những 614
▁gh 615
▁tên 616
▁giáo 617
▁chết 618
▁gần 619
▁thống 620
▁mất 621
▁cố 622
ấm 623
iếm 624
▁an 625
ãi 626
▁đình 627
ắp 628
▁Ô 629
▁thêm 630
▁sức 631
▁tục 632
▁khách 633
ẹp 634
▁cổ 635
▁ảnh 636
ằm 637
▁chơi 638
▁đạo 639
▁ngay 640
▁hoá 641
▁văn 642
▁mày 643
▁thay 644
▁ơi 645
▁mắt 646
▁Ông 647
▁quyền 648
▁từng 649
▁mang 650
▁chu 651
▁doanh 652
ặng 653
▁chắc 654
▁Các 655
▁chẳng 656
▁vật 657
▁giữa 658
▁đủ 659
▁mua 660
▁tăng 661
▁bóng 662
▁sách 663
▁bác 664
▁phía 665
▁mỗi 666
▁trí 667
▁bé 668
▁bán 669
▁thần 670
▁quý 671
▁trời 672
▁bàn 673
▁vi 674
▁cảnh 675
▁địa 676
▁Khi 677
iếc 678
▁lã 679
oi 680
▁phố 681
▁Nga 682
▁xã 683
▁rõ 684
▁Cái 685
▁hiệu 686
▁trận 687
▁Mỹ 688
▁trẻ 689
ưu 690
▁lợi 691
ui 692
▁hả 693
▁Qu 694
▁lập 695
▁nha 696
▁hãy 697
▁nguyên 698
▁án 699
▁Con 700
▁minh 701
▁chất 702
▁chân 703
▁dùng 704
▁so 705
▁ban 706
▁dịch 707
▁kia 708
▁chịu 709
▁chạy 710
▁ạ 711
▁Gi 712
▁tỉnh 713
▁ty 714
▁đứng 715
▁loại 716
▁sở 717
▁càng 718
▁vực 719
▁tiến 720
▁dẫn 721
▁cửa 722
▁sợ 723
▁điện 724
▁chỗ 725
▁thi 726
ệt 727
▁dù 728
▁ngồi 729
▁sát 730
▁tranh 731
▁giống 732
▁bởi 733
▁đồ 734
▁X 735
▁diễn 736
▁nhớ 737
▁chuyển 738
▁vui 739
▁đứa 740
▁giao 741
▁đơn 742
▁xa 743
▁phụ 744
▁lâu 745
▁đặc 746
▁kiến 747
ar 748
er 749
▁ít 750
▁khỏi 751
▁Người 752
▁tuổi 753
▁bố 754
▁sang 755
êng 756
▁thằng 757
▁phẩm 758
▁chung 759
▁máy 760
▁chiếc 761
▁Là 762
ĩnh 763
▁thiết 764
▁chọn 765
▁đẹp 766
▁cây 767
▁dài 768
▁mục 769
àu 770
▁giữ 771
▁Quốc 772
▁đông 773
▁đáng 774
▁hướng 775
▁cứu 776
▁hoạt 777
▁truyền 778
▁xác 779
▁đặt 780
uyễn 781
▁bài 782
▁lẽ 783
▁dễ 784
▁biến 785
▁tham 786
▁cuối 787
▁phục 788
ùa 789
▁chương 790
▁xong 791
ậm 792
▁dưới 793
ảm 794
▁kể 795
▁khiến 796
▁U 797
▁Trung 798
▁sai 799
▁chứng 800
▁vợ 801
▁đừng 802
▁Nguyễn 803
▁triệu 804
▁gái 805
▁nè 806
▁Còn 807
▁bước 808
▁coi 809
▁khả 810
▁luật 811
▁tương 812
▁tối 813
▁khoảng 814
iêng 815
▁chế 816
▁ngu 817
▁trưởng 818
▁tích 819
▁mở 820
▁tượng 821
▁khí 822
éo 823
▁quay 824
▁đá 825
▁thái 826
ựa 827
▁tức 828
▁à 829
ẩy 830
▁Vì 831
▁nghiệm 832
▁nổi 833
▁tao 834
▁Đây 835
▁thuộc 836
▁Mà 837
▁Tuy 838
▁mức 839
âng 840
▁nhiệm 841
▁thanh 842
▁Đó 843
▁tổng 844
▁nhanh 845
▁nữ 846
óm 847
▁chia 848
▁kiểm 849
▁vệ 850
▁ứng 851
▁đàn 852
▁yếu 853
▁xảy 854
▁chi 855
▁hồi 856
iềm 857
▁vài 858
▁vọng 859
▁đem 860
▁duy 861
▁phủ 862
▁lịch 863
ượt 864
▁chút 865
▁hạn 866
▁kế 867
▁cực 868
▁chồng 869
▁ 870
n 871
h 872
t 873
i 874
c 875
g 876
a 877
m 878
đ 879
u 880
à 881
o 882
l 883
. 884
ư 885
r 886
y 887
v 888
á 889
ô 890
b 891
k 892
, 893
ó 894
p 895
s 896
ế 897
ì 898
ạ 899
ộ 900
ờ 901
ả 902
ấ 903
ê 904
ố 905
â 906
ớ 907
ệ 908
d 909
ề 910
ể 911
ơ 912
ủ 913
ậ 914
ợ 915
e 916
q 917
ầ 918
ú 919
ị 920
ữ 921
T 922
í 923
ă 924
x 925
ứ 926
ự 927
ọ 928
ồ 929
ã 930
ở 931
C 932
N 933
ắ 934
ừ 935
ò 936
ụ 937
ũ 938
ổ 939
ặ 940
ẽ 941
ù 942
? 943
V 944
ằ 945
M 946
Đ 947
ỉ 948
ỏ 949
H 950
ý 951
ử 952
ĩ 953
B 954
é 955
ỗ 956
ẫ 957
ẹ 958
K 959
L 960
ẩ 961
ễ 962
S 963
ẻ 964
A 965
è 966
P 967
ẳ 968
D 969
Q 970
õ 971
! 972
ỹ 973
ỡ 974
G 975
ỳ 976
E 977
R 978
ỷ 979
Ô 980
X 981
U 982
ẵ 983
f 984
I 985
Ở 986
Â 987
Á 988
Y 989
J 990
z 991
ỵ 992
F 993
O 994
w 995
W 996
Ấ 997
Ý 998
Ừ 999
j 1000
Ă 1001
Ờ 1002
À 1003
Z 1004
Ả 1005
Í 1006
Ồ 1007
Ơ 1008
Ê 1009
Ư 1010
Ứ 1011
Ú 1012
Ố 1013
Ớ 1014
Ủ 1015
É 1016
Ẩ 1017
Ắ 1018
Ổ 1019
Ỷ 1020
Ù 1021
Ế 1022
Ỳ 1023
<blk> 1024
